[PAD]
[UNK]
[START]
[END]
!
"
#
$
%
&
'
(
)
*
+
,
-
.
/
0
1
2
3
4
5
6
7
8
9
:
;
<
=
>
?
@
[
\
]
^
_
`
a
b
c
d
e
f
g
h
i
j
k
l
m
n
o
p
q
r
s
t
u
v
w
x
y
z
{
|
}
~
¡
£
©
«
®
°
¶
»
×
æ
÷
ø
œ
ʔ
ʕ
ʖ
λ
μ
а
б
в
г
д
е
з
и
к
л
н
о
п
р
с
у
х
ы
ಠ
ᴗ
ᴥ
–
—
‘
’
“
”
†
•
‿
€
⇒
≦
≧
⊂
━
┻
╯
□
▽
◕
◠
☆
☺
♂
♡
♥
♩
♪
♫
✌
✿
❤
⸮
《
》
ツ
🇫
🇷
🇸
🇺
🍫
🎵
🎶
🏍
🏻
🏼
🐓
🐧
🐬
👄
👌
👏
💪
😁
😂
😃
😄
😅
😉
😊
😋
😎
😑
😒
😔
😕
😞
😠
😤
😳
🙃
🙄
🤔
🤘
🤞
🤣
🤦
🥂
🦈
🦋
de
la
le
et
est
les
un
pas
que
en
des
je
##s
pour
une
qui
tu
du
ca
il
dans
on
mais
sur
ce
plus
qu
ne
ou
au
avec
si
par
2018
ai
03
##e
fait
libre
forum
tout
me
meme
se
faire
sont
bien
comme
ils
##r
etre
quand
te
mon
suis
peu
ont
elle
non
etait
vous
as
son
aussi
donc
peut
ton
##nt
moi
aux
va
france
sans
tres
avoir
apres
bon
ma
leur
##es
sa
rien
gens
lui
dire
mal
moins
tous
cette
deux
parce
quoi
juste
faut
nous
temps
ces
alors
toi
##ment
oui
es
francais
autre
##t
monde
fois
contre
dit
trop
##a
ete
coup
ans
soit
deja
ses
peux
autres
mes
jamais
ta
vraiment
voir
encore
entre
veux
avait
comment
fais
genre
cas
avant
##z
chez
sais
vie
pense
passe
toujours
gros
pourquoi
sous
vu
##ant
chose
probleme
beaucoup
##n
toute
tes
trouve
the
10
##d
##o
demande
##ait
##re
veut
##i
question
car
##l
##ur
mois
assez
##te
reste
etc
prendre
eu
jours
leurs
depuis
droit
personne
avais
vois
vais
dis
parle
cela
cote
paris
##er
ici
mieux
ceux
pays
puis
20
sinon
part
##m
compte
moment
##ne
surtout
bonne
exemple
jour
plutot
aller
merci
ah
##ie
truc
##is
quebec
mettre
ailleurs
etat
serait
##y
petit
travail
point
besoin
##c
grand
quelques
mec
merde
notre
##ais
pendant
chaque
fin
##le
##u
personnes
15
marche
enfin
seul
font
passer
niveau
trouver
parler
quel
droite
##h
donne
doit
partie
vrai
arrive
sarkozy
nos
ben
place
aime
dont
idee
##k
bas
crois
tant
toutes
dessus
politique
edit
eux
bref
sens
commence
accord
train
pouvoir
##x
macron
quelqu
face
jusqu
vote
##urs
aurait
article
etais
plusieurs
vont
##p
femmes
##g
tete
enfants
famille
maintenant
parti
gauche
annees
autant
sujet
##on
etaient
prix
##it
100
histoire
celui
facon
of
devant
jeu
semaine
sera
21
quelque
##se
##ux
certains
entreprise
societe
plein
aucun
base
##ge
14
selon
raison
##ation
loin
savoir
service
super
semble
vas
air
bah
vos
pris
cher
elles
ouais
souvent
ville
in
##able
change
ecole
ni
envie
loi
##ite
choses
jeux
votre
##me
avis
trucs
debut
sncf
vue
possible
13
sub
tellement
europe
premiere
##ing
22
putain
cause
sauf
nouveau
##tte
reddit
##f
##ine
nicolas
nom
partir
sexe
16
##in
07
vite
haut
payer
president
perso
hui
mort
porte
reponse
utilise
trois
aujourd
fn
francaise
poste
##age
ex
for
laisse
an
boulot
comprendre
gouvernement
premier
voila
##€
mis
video
02
internet
maniere
feu
heure
questions
choix
con
lire
petite
aucune
trump
##ise
##ons
projet
quelle
euros
importe
prend
seulement
12
hein
annee
femme
paye
pourrait
and
argent
forcement
voiture
##al
##de
##que
aide
cours
journee
systeme
##2
pis
vers
##ce
ok
problemes
to
##ique
##ts
30
changer
jeunes
situation
suite
200
aura
boite
cet
chomeurs
vient
dois
jean
maison
mets
23
donner
existe
experience
fond
met
nouvelle
pc
19
canada
egalement
ensuite
heures
ligne
peuvent
simple
##lle
celle
pire
public
##iste
##us
difference
greve
pourtant
completement
rapport
campagne
compris
minutes
##aient
##ier
monsieur
avez
bout
connais
soir
arrete
dernier
pareil
##ir
arreter
sait
ancien
melenchon
type
matin
mot
mots
combien
fi
google
majorite
presque
recherche
joue
limite
terme
##tes
grosse
justement
risque
##1
extreme
french
idees
meilleur
viens
##aux
50
longtemps
oh
##isme
##nce
06
seule
sortir
aurais
fonction
general
homme
impression
regarde
##tion
memes
##les
clairement
derniere
emplois
08
eau
laisser
lieu
moyen
services
##ra
prends
tour
chier
commentaire
force
petits
qualite
semaines
##ure
ecrit
hommes
livre
lundi
mars
attention
grande
post
pu
##aire
##ent
chat
classe
derriere
etant
garde
long
age
annonce
anti
penser
proche
salaire
vieux
##an
##ion
##ns
##ue
devrait
facebook
000
05
anglais
carte
dedans
final
gars
pen
pro
propos
commentaires
effectivement
retour
##as
hors
jouer
nombre
prefere
comprends
faudrait
manque
parfois
peur
##use
avaient
etudes
existent
fac
media
certaines
coute
franchement
main
message
realite
##0
##rait
##res
##ter
24
doute
faux
fini
lu
pere
groupe
nuit
population
ya
09
acheter
jeune
surement
##6
##ner
cool
effet
is
parents
peine
regarder
aider
arriver
passage
simplement
utiliser
vivre
##b
blanc
controle
desole
epoque
medias
##ance
appelle
explique
mecs
##nes
##pe
emploi
environ
hier
mere
source
##ble
##os
autour
demander
education
exactement
imagine
saint
serieux
##che
chance
cuisine
cul
fille
justice
normal
voit
##au
absolument
affaire
but
milieu
ministre
permet
propose
repondre
retrouve
tard
veulent
##at
##ies
beau
facile
guerre
millions
police
voter
##5
ci
conseil
decide
faite
fort
gagne
grace
lors
propre
##ai
belle
ensemble
etudiants
vis
##ction
##ve
faisait
madame
site
##istes
##rs
amis
debat
ecraser
plan
pres
statut
travailler
essaye
essayer
lance
musulmans
##ee
chomage
etats
langue
marine
noir
ps
vouloir
##3
##isation
cheminots
discours
gueule
lol
perdu
pratique
rendre
40
mauvais
mode
tel
##4
acces
concernant
policiers
rester
solution
vitesse
##w
lettre
religion
sort
##rie
bordel
certain
chef
donnees
interet
logique
note
retraite
travaille
25
cons
eviter
lien
poutine
presse
sante
##ler
ait
allemagne
chiffres
dix
film
immigration
##be
##ement
ainsi
culture
interieur
notamment
or
oublie
partout
plupart
seront
sert
soucis
village
contraire
deuxieme
esprit
etude
important
##ard
##v
cherche
faisant
milliards
montre
rentrer
sympa
unis
17
entreprises
forme
interessant
moyens
points
regime
version
you
##ke
##rer
##tique
##tre
blanche
cinq
depend
election
espere
faute
tiens
titre
top
##ille
##ration
2017
allez
code
difficile
doivent
manger
pourrais
sortie
##ants
critique
dur
employes
faits
produit
sociale
##el
armes
croire
date
etes
evidemment
generation
probablement
prochaine
retraites
soient
##7
##ont
devenir
disent
droits
hyper
perdre
photo
position
publique
reunion
tf1
##sion
cadre
continue
echange
fou
mediapart
pote
rue
telephone
tombe
##ale
##sse
##teur
2015
net
petites
possibilite
quebecois
suffit
##la
##ly
achete
banniere
chaines
chercher
clair
conditions
devient
generalement
mauvaise
oblige
prison
puisque
quelles
special
tente
touche
venir
##8
##ante
##ch
##ient
##if
2007
armees
assurance
creer
demain
directeur
foutre
metro
radio
soeur
totalement
uniquement
velo
yeux
##ou
court
nouveaux
parles
plaisir
pq
raciste
securite
takieddine
tiers
##naire
bras
entendu
he
impots
minimum
penses
pose
poser
principe
psy
racisme
rencontre
resultat
samedi
style
##ire
##ule
auto
bureau
comprend
direction
elections
equipe
feminisme
juge
nationale
pauvre
responsable
voulais
arguments
ayant
barre
beurre
capable
conseils
continuer
finalement
islam
mardi
opinion
politiques
sociaux
transports
##mes
actuelle
appel
chacun
direct
drole
hlm
impossible
info
liberte
parait
rap
reseau
serie
##ans
##ations
bonjour
francois
frere
malgre
moyenne
news
nouvelles
peuple
pierre
sorte
total
vaut
voix
##00
appli
attaque
confiance
depart
dossier
fasse
infos
lequel
maire
preuve
salaries
taux
texte
##ger
argument
centre
choisir
directement
fils
free
gueant
liste
produits
reforme
regles
valeurs
verre
voitures
bus
cafe
canard
coupe
end
martine
postes
raconte
utilisation
##iser
bientot
euh
expliquer
fallait
image
mesure
nan
national
potes
quels
raisons
rouge
salut
terre
##ien
##il
##rant
##ste
cantat
commun
conneries
differentes
discuter
finir
lycee
medecin
presente
prise
russie
sport
suppose
tire
##ive
##or
##tant
90
avance
ceci
claude
edition
emission
enfant
laquelle
largement
montpellier
montreal
rapidement
region
sauce
sors
souhaite
transport
vendre
##gne
##ll
##rd
##vant
abord
contrat
couple
different
double
ecran
empeche
faites
ferme
fonctionne
informatique
interesse
mise
montrer
offre
orange
plainte
reference
religieux
retrouver
serieusement
##um
avantage
bac
bosser
chinois
dehors
disant
dos
eleves
enormement
enquete
juges
normalement
origine
pensez
periode
personnel
rire
route
salary
sud
taxes
vision
##ane
##iers
##ls
##ry
alle
blague
blancs
charge
decision
depute
devoir
dirais
ecoute
epaule
grave
it
lorsque
occasion
rappelle
sale
social
ultra
up
viande
week
##en
28
actuellement
affaires
alcool
allait
bonnes
dessous
devrais
dieu
differents
donald
gagner
generale
livres
programme
salaires
savent
youtube
##9
##ck
##eur
##ez
##ions
attends
bons
complique
cout
facilement
fake
filles
ha
images
lrem
max
meilleure
pain
partis
republique
retard
universite
valeur
##des
##nts
##sant
##ta
##ut
capitalisme
chine
courant
cree
ecoles
four
job
necessaire
soiree
via
voyage
vrais
##rais
arme
balles
connerie
coranique
envers
fromage
libres
marseille
ordre
proposez
rend
rentre
revenir
scientifique
tele
voire
votes
web
##co
##he
##iques
##ot
##ri
##tent
aimerais
avantages
blockchain
bois
chemin
coeur
connu
courage
devenu
elements
energie
enorme
haha
huile
judiciaire
pensais
plait
quasi
savais
sujets
ue
##vait
action
afin
auras
chambre
cite
clients
domaine
fera
fuck
masse
mensonge
modele
musique
nationalite
peau
proces
prochain
relation
revenu
science
sentiment
sociales
vraie
##ces
##j
##nd
60
ajoute
are
avoue
beltrame
chanson
coin
collegues
connaissance
eleve
hortefeux
lecture
prive
recherches
repond
second
serais
siege
taf
tenir
tester
tourne
violence
voies
##ables
##ain
##ia
##ible
##lant
2016
art
augmentation
auraient
compiegne
content
contenu
dealent
democratie
dernieres
lit
machine
meilleurs
moindre
moitie
nature
pied
pleine
proposition
quatre
role
servir
tendance
videos
voie
##ateur
##ments
##mment
##ni
##ti
##uses
aja
balance
bloc
chaine
classes
club
commencer
concerne
concurrence
correct
crise
derniers
espace
ferait
figures
formation
frais
gestion
gout
haine
nord
nouvel
page
porter
tourner
us
zone
##ar
##ches
##et
##gue
##lo
bar
bertrand
bosse
candidat
choisi
comptes
concours
considere
defendre
desormais
economie
ecriture
ile
midi
option
particulier
pauvres
pensee
pouvait
rapide
remarque
reussi
switch
taper
theorie
trains
traiter
vaccins
##ales
##cs
##nel
##nie
##ttes
##xe
accuse
application
assure
avons
calme
changement
classique
commissaire
demi
economique
excuse
feministe
fous
grands
ideal
lis
mange
militaire
nez
ouellet
partage
promotion
refuse
suivre
tirer
voisin
##ct
##der
##ette
##ide
##lation
##ps
##ser
300
activite
appeler
arriere
budget
cabinet
case
cerveau
connaitre
contexte
dirait
dure
etrangers
evident
expulsee
fl
gerer
hesite
liberal
lignes
mains
neuf
ouverte
particulierement
portes
pousse
pouvez
publics
resto
sorti
tape
tenter
tue
##aires
##am
##ed
##li
##lin
##na
##nne
##per
##q
70
analyse
animal
aurai
baisse
bruit
carrement
choc
defense
disais
effort
figaro
journalistes
memoire
methode
mouvement
ouvert
parfaitement
passant
photos
re
repas
salle
smash
sois
table
usine
voulait
ziad
##ues
americains
ami
arrivee
attendre
boites
bouffe
connait
eh
entendent
examen
financer
garder
insulte
interdit
legal
lie
marque
ministere
partager
principal
regle
riche
solo
telle
##ade
##nait
##ver
accepte
administration
apple
arnaud
banque
cagoulees
celles
connard
contact
delogent
ecrire
erreur
etrange
faible
financement
gen1
habitants
man
medecins
merite
op
ouvrir
personnellement
phrase
prefet
puisse
reellement
referendum
refuser
rendu
secondes
technique
tuer
vachement
##eme
##rt
##teurs
##ton
##ty
alternatives
apprendre
brice
client
compagnie
couilles
deputes
discrimination
entretien
equivalent
froid
grosses
haute
honnetement
instant
interdire
inutile
libye
libyen
malheureusement
memercredi
mosquee
nucleaire
objectif
ouvre
papier
prennent
presidence
production
relations
religions
repondu
riches
risques
sexuel
sexuelle
siecle
sondage
tasers
tort
travailleurs
trouves
utile
vide
##cte
##do
##go
##quant
##rage
##ute
adore
after
arrivent
bidon
chaud
chiant
creme
definition
downvote
entend
estime
etranger
eureddision
expression
futur
ideologie
insoumise
inverse
marre
membres
paie
passes
physique
portable
pression
reponds
resultats
russe
scandale
secteur
sein
ticket
usa
vente
verite
##ga
##ic
##illes
##lles
##mant
##nant
##nte
##sh
80
alexandre
americaine
apparemment
boire
brexit
devait
falloir
films
forte
gagnent
hidalgo
humain
information
journal
karma
migrants
modos
ose
oublier
parisiens
pensent
planete
puisqu
quasiment
recu
reponses
revient
roule
secret
sommes
superieur
taille
tient
trou
twitter
viennent
voisins
##iens
##itaire
##ma
##ront
##sent
##uel
accident
amour
articles
augmente
casser
casserole
cheveux
chien
controverse
cotisations
cv
dimanche
discussion
exemples
fil
finance
fout
fumer
gratuit
gratuite
habite
hasard
ingenieur
italie
joueurs
lieux
maladie
metier
micro
montant
neige
numero
pates
plat
pointe
pourra
premiers
prof
quitte
rappel
refusent
specialement
surprise
tendu
thread
tours
trajet
uni
verifier
victime
with
##ages
##da
##ins
##mo
attaques
carriere
centrale
chauffer
communaute
conscience
conseiller
consommation
copine
crif
don
entree
essence
etudiant
exterieur
fan
fibre
file
groupes
impact
internationale
lendemain
marrant
monte
moteur
netflix
perd
poil
populaire
prevu
quant
reaction
responsabilite
royaume
seconde
signe
tgv
victimes
villes
##iere
##mi
##ng
##rai
##ran
##ture
##ules
1000
18
2012
89
apporte
cense
cependant
clavier
collegue
com
conclusion
condition
corps
criteres
diesel
disons
dommage
drogue
echec
entendre
fut
humour
institution
jardin
jinping
mayotte
monthly
parfait
parlent
present
pret
professeur
projets
race
rarement
reseaux
retourne
sent
seuls
supermarche
terrorisme
tot
tv
xi
##aine
##ate
##ers
##ires
##ises
##ites
##ives
##ro
##taire
##ves
400
americain
attentat
aude
bros
canal
certaine
cheminot
compare
complet
concert
congres
contacts
couleur
csg
devoile
entier
envoyer
europeenne
fameux
faveur
formidable
journaliste
menace
meta
mettent
militaires
militants
permis
polo
precise
premieres
promesse
quotidien
reflexion
rends
reproduction
respect
restes
ridicule
suivi
traite
valerien
##bo
##ld
##tait
##ye
actuel
alimentaire
avenir
bete
bizarre
bof
cache
chere
colle
contrairement
couper
coups
declenche
delire
durant
echelle
empecher
got
hausse
juifs
location
mairie
methodes
necessite
pate
payes
pieds
poteau
reconnaitre
remplacer
represente
resume
sachant
saison
techniques
traitement
vit
voulu
was
##ad
##cteur
##ees
##ght
##graphie
##ical
##ification
##lage
##out
##ques
##ree
800
abus
arsenal
aspect
certainement
chances
co
combat
confirme
cycliste
derange
disque
dormir
eglise
espece
familles
gene
heureusement
heureux
honte
informations
insoumis
installation
invite
laicite
linky
lois
luc
mene
mesures
min
monter
mur
nul
oppose
ouverture
pie
privee
proches
profiter
russes
sanctions
sel
stresse
termes
test
transforme
utilisent
vacances
volonte
##man
##to
2000
27
absence
achat
acquis
assurer
attend
avocat
bouts
bravo
caisse
cameras
categorie
certes
cle
cles
conseille
cotes
debile
declaration
developpement
differences
difficulte
divers
echalotes
enferme
envoye
etudie
fausse
fenetre
foi
forces
graphique
habitude
hey
inquiete
lyon
manif
melange
moderne
morale
moscou
nombreux
ordi
pole
prepare
profil
puissance
rdv
regulierement
remettre
respecte
revenus
sauver
ssii
suivant
this
travaux
travers
vire
##cher
##con
##ha
##iel
##ile
##oue
##ses
##tions
##ud
aides
aiment
arte
attente
avion
bande
bloque
bord
calendrier
capacite
chanteur
compter
connaissent
decider
disait
distance
documents
endroit
europeen
extra
fachos
feministes
forfait
future
game
grandes
interdiction
interpretation
jambon
jeudi
liens
logement
longue
pensait
philosophie
piece
plq
poster
pouvais
protestations
pub
relativement
rem
sac
steak
toucher
trebes
tribunal
troll
unique
vieille
violences
vole
##antes
##cle
##ick
##id
##ines
##km
##lite
##ndre
##nent
##onne
##rateur
##ries
##sif
##ssement
##tie
##tive
against
allais
appart
armee
arret
auquel
autoroute
because
bernard
brut
cash
casse
choisis
concept
cru
denis
donnes
ecouter
enqueteurs
essaie
eut
fermer
fermeture
francaises
frensoaria
fruits
historique
importante
influence
invoque
legumes
matiere
medical
mi
more
new
offrir
pile
pourri
pratiques
precedent
prepa
presidentielle
prime
profite
raisonnement
rajoute
recettes
revolution
sentir
sommeil
suit
that
tinder
tranquille
tva
tweet
vendu
voulez
woman
##bles
##cu
##dre
##eau
##ime
##mer
##ol
##ras
##rine
##ster
##yant
150
45
500
75
accent
agression
amazon
animaux
arabes
between
biere
cinema
comparaison
couche
crime
decisions
decouvert
desjardins
detruire
erreurs
express
fevrier
fortement
km
lancer
learn
lieutenant
lutte
marie
medecines
metiers
no
organise
paquet
parceque
permettre
pete
posts
pot
presenter
prises
quartiers
recemment
reconnu
sache
scenario
sites
sources
taff
terrain
textes
than
these
traduction
vecu
vehicule
vendredi
virer
vs
##10
##abilite
##ah
##ards
##die
##ial
##ki
##logie
##nais
##nis
##rable
##rite
##tons
3h
ajouter
anciens
applications
applis
appris
assume
augmenter
aupres
auteur
bol
bordeaux
bossent
bouger
britanniques
chiffre
chute
couleurs
coupable
cousin
dangereux
depasse
deteste
developper
diplome
dr
efficace
electrique
element
elu
entends
epicerie
facho
faudra
heros
lettres
lille
marches
marge
membre
menage
mission
moderation
mouvements
musulman
nazis
negociations
oeuvre
organisation
pages
parlais
passent
pe
pi
podcast
poele
poids
pourront
preuves
principalement
racistes
reel
regions
regler
regrette
reve
secu
senat
soi
solutions
souci
surface
syndicats
titres
troisieme
univers
usage
voici
wow
##cons
##ice
##lement
##nable
##naires
##oir
##rent
##rge
##tation
##tres
##uer
##uler
##vi
1ere
aimer
arrives
attendant
bouteille
cf
char
cites
complete
compteurs
considerer
cour
credit
croit
dame
debit
do
doigts
donnee
drapeau
effets
employe
entierement
evite
existence
fiche
finit
formes
fric
globalement
hollande
implique
impose
jugement
leger
leve
londres
malade
marcher
noms
open
parties
personnage
places
pm
preparer
priori
profit
propres
proteger
psg
quantite
reflechir
regard
reinsertion
secrets
sensible
sortent
space
steam
support
technologies
tickets
tourte
types
visite
##ac
##ama
##atif
##cre
##cule
##cy
##ds
##eurs
##gh
##ieme
##its
##ka
##lait
##rations
##riques
##rise
##ume
##val
##vation
accepter
affirme
apprend
banlieue
bonus
cacher
carrefour
charges
cherches
colonel
comportements
condamne
cœur
data
decede
decouvrez
disparition
disponible
drh
electricite
employeur
environnement
episode
evoque
fixe
flemme
fun
gamme
gender
genie
glace
honnete
humaine
ignore
imaginer
imposer
inge
ip
jette
kadhafi
libyens
lorsqu
maintenir
mariage
michel
minorite
modo
ouest
outre
parole
pauvrete
perte
positions
precis
prouve
pyramide
repris
rouler
ryzen
seraient
situations
soigner
souvenirs
steve
succes
technologie
tenait
territoire
theme
tranche
tribune
triste
trolls
tueries
urgences
utilises
valide
vivent
xenophobe
zero
##00€
##ack
##ave
##bilite
##cture
##elle
##igne
##isee
##itation
##lais
##mise
##mont
##one
##pes
##rique
##rn
##table
##tif
##ville
##vre
11
390
all
ambiance
ameliorer
amie
antifas
assemblee
banques
be
bouquins
caq
ceo
chats
chauffe
choque
college
consequences
correctement
creation
culturel
danger
dela
dise
douche
elysee
euro
eventuellement
ferais
flics
format
fortunes
idem
identite
intention
interne
liberaux
loyer
lr
malhonnete
minute
misere
niveaux
odeur
papiers
pardon
personnelle
ping
poche
poils
presence
prete
prets
publie
ranger
reduire
releve
residence
savez
secondaire
souris
sucre
tomber
utilisateurs
verra
violent
wins
##0€
##and
##ay
##card
##ctive
##gie
##iez
##istique
##ix
##mis
##nelle
##ole
##ris
##tain
##uche
1h
3615
actions
agents
aimes
amene
appele
approche
arabe
bannon
bataille
blagues
bouffer
bouquin
burger
camp
cgt
cherchent
coller
commerce
conversation
conversion
debats
depenses
depot
detestent
dette
egalite
emmanuel
enseignement
extremement
fine
foret
foutu
fraude
front
go
habitudes
harcelement
hiding
hopital
humains
ingenieurs
institutions
juger
local
macbook
maitre
meuf
mourir
not
olivier
opposition
otages
pars
philippe
plaindre
poivre
pourraient
propagande
prouver
pur
qualified
quartier
quelconque
ratp
redditeur
reprendre
representent
reserve
ressemble
retire
rises
russian
seins
sexuelles
soupconne
stage
strategie
trouvent
upvote
vise
voyez
years
your
zones
##by
##cer
##cie
##ff
##gnes
##ifie
##io
##lie
##logique
##lot
##sa
##tine
##tis
##tise
##tra
##vent
2004
55
acte
afrique
association
assumer
asterix
autobus
autorise
autrement
bitcoin
bloquer
bouche
catholique
cell
chocolat
commande
confirmation
consequence
consomme
construire
controler
decembre
depenser
devraient
electorale
enerve
envoie
evolution
faisais
ferroviaire
fier
filme
fonctionnement
former
gare
genial
hauts
have
homosexuels
hop
horrible
incapable
informaticien
janvier
lache
lacher
langage
magie
mai
manifestants
marde
may
mechant
men
mireille
moments
noirs
nombreuses
norme
obligatoire
operation
ouai
paix
parquet
passee
patron
pop
province
rappeler
rare
rares
refaire
remuneration
retours
sfr
silence
souviens
st
urgence
venant
vend
vent
visiblement
voudrais
who
##30
##ace
##ber
##cite
##gb
##iller
##isse
##ition
##lons
##lore
##met
##od
##oire
##pa
##tin
##tiques
##uil
##vable
##vage
##ze
26
99
alerte
alt
ancienne
anne
appliquer
apprecie
assistant
automatique
battu
belles
besoins
biais
canadian
cancer
candidats
cartes
censure
christian
clope
colere
commune
comportement
comprehension
conduit
conflit
conges
courses
croissance
croyants
declare
demandes
denonce
details
devinez
doigt
donnent
enchaine
etape
futurs
gauchistes
gay
gen3
gnocchis
gras
help
histoires
including
incroyable
installe
intervention
life
litteralement
mail
master
mdp
mediatique
mentalite
mince
multi
my
nomme
normes
notion
obtenir
parcours
parlement
parlementaire
partit
pause
people
permettent
pique
polemique
poses
poulet
pouvaient
preferes
principale
quai
rate
religieuse
remplace
retirer
reussir
rural
sacre
sciences
similaire
six
tas
tomates
trudeau
vache
vol
##asse
##fe
##fier
##ges
##hu
##ivite
##lier
##min
##nage
##nnes
##ord
##pent
##quer
##quette
##rds
##sage
##si
##sions
##th
##toire
##ualite
##ude
##ution
1er
2005
20h
abat
affirmation
ahah
aient
amiral
android
applique
attentats
auteurs
balle
batiment
beaux
berges
big
bin
blesse
bouge
bourre
calcul
capitale
caractere
chretiens
communes
communication
communiste
comparer
console
constate
controles
course
couter
croyais
csgo
cycle
davantage
deal
dizaines
djouhri
entrepreneur
etonne
etudier
europeens
familiales
financier
fonctions
francophones
gains
galere
gendarme
gosses
idiot
immigres
impot
independance
industrie
interpelle
joueur
justifier
laisses
limites
lourd
lumiere
machines
maslow
massif
materiel
mcdo
mer
million
mongrain
moule
nation
navire
obligation
occupe
offres
ouvriere
parmi
personnalite
plateau
pooteen
populisme
prevenir
procedure
proposer
proprietaire
propriete
proprio
protection
pseudo
quitter
quoique
rapporte
real
recommande
redaction
reunions
revanche
scene
sec
sense
socialiste
soleil
somme
souvenir
tabac
tache
tandis
tech
traffic
vehicules
venu
veritable
##50
##alement
##ande
##bes
##cence
##ci
##cter
##ert
##eux
##igner
##im
##line
##ller
##mbre
##nces
##ny
##ort
##rance
##risation
##riste
##uh
##va
##vante
##voir
120
35
acceptent
actes
advantages
africains
agit
agresse
al
alternative
americaines
apologie
assis
before
bel
bide
black
britannique
campagnes
canadien
cesse
chirac
commencent
commission
connaissances
convaincre
couvert
critiques
cuire
dev
diffuse
dizaine
doyen
duree
ecologique
efforts
especes
exception
experts
expres
fonds
forcer
formule
fps
from
frontiere
frustration
gamin
geant
gentil
gere
grenoble
integration
intermediaire
italiens
itt
jury
knoll
like
locaux
magique
martin
mat
maximum
messages
mineurs
mini
morts
nazi
nice
noel
organiser
parc
pdg
perspective
petrole
pilule
poisson
prenez
processus
profs
puissent
puree
reconnait
reglement
remonte
repere
rigolo
rouges
rues
sauvage
sept
simples
specialiste
strasbourg
syndicat
techno
tenu
terroristes
tramway
vasectomie
velos
vendeur
voisinages
votent
##ctif
##dation
##fs
##gnon
##iale
##ielle
##ienne
##land
##lis
##lla
##mie
##mpe
##ms
##nde
##niste
##om
##pense
##pere
##porte
##pr
##ratif
##rier
##sement
##sque
##ss
##st
##uilles
##ulaire
##ures
##ust
##uts
##uve
##vais
29
2e
2h
44
actif
adresse
affiche
altruistes
amende
appels
apprecier
argumente
argumenter
arrange
artistes
bars
bourgeois
bullshit
camera
canape
citer
competences
connaissais
convient
correction
coucou
decident
definitivement
degre
detail
devenue
deviennent
document
douleur
excusez
facture
felix
financiere
fonctionner
forcee
formations
gaffe
gateau
gauchiste
gouts
heu
hiver
incapables
instruction
insultes
interessante
investissement
joyeux
large
linux
mari
mechants
mettons
meurtre
moche
mondiale
multiples
murs
muscle
noter
observe
occuper
officiel
options
pisse
policier
populaires
potentiellement
propositions
rassemblement
reelle
reveille
revele
rise
roman
rougeole
salarie
scotch
secretaire
selection
seras
sexiste
sieur
station
stephane
svp
tonnes
toulouse
truque
vague
washington
xd
##cal
##cole
##ctifs
##erie
##ey
##ffre
##iment
##int
##ish
##ks
##las
##mt
##ors
##oule
##pant
##pin
##pu
##rasse
##rk
##ron
##sive
##so
##ssant
##stique
##tage
##tel
##tier
##ul
##un
##up
##vie
##vient
##ya
##yer
abonnement
acteurs
additional
agreable
allemand
appareil
appartient
arbres
associations
auront
autonomie
avortement
batterie
battre
bdd
bebe
bell
benefice
bingo
boutique
branche
bruxelles
by
capitaliste
cesar
choisit
christianity
citoyens
critiquer
deconner
default
defoncer
deletefacebook
demenage
demeure
descente
devais
efficacite
episodes
epuise
ethnies
eventuelle
extrait
fausses
feminin
figure
fillon
flair
gamins
gen2
gone
gratos
guerres
guy
hauteur
importants
independant
indique
informe
informer
integre
invente
ira
israel
jacques
japon
jeter
journaux
laxisme
liquide
manifestation
merdes
meufs
meute
milliers
mobile
modeles
moteurs
nana
notes
now
objet
olive
one
ouf
perdent
personnelles
placer
port
possibles
pre
printemps
privatisation
promis
publiquement
pure
qwant
reac
recuperer
reduction
remarquer
renault
rencontres
ressources
retiens
rsa
sauter
secteurs
serai
servent
sms
societes
soins
sonne
sourire
soutien
star
stats
su
suisse
surpris
systematiquement
techniquement
telford
temperature
termine
tests
tigris
tireur
uns
visage
voulaient
voyageurs
##ateurs
##box
##bus
##ca
##cant
##cial
##crire
##cules
##eration
##euse
##fa
##ibilite
##ieux
##laient
##laire
##lise
##lisse
##lon
##lr
##lu
##mb
##nisme
##oche
##ones
##op
##oy
##pie
##pose
##ral
##rre
##sme
##tch
##tro
##uels
##uit
##wn
200€
2014
2019
250
38
3d
accidents
activites
adapter
ados
adresses
ail
airfrance
allons
appartement
appellent
arrondissements
beta
boissons
bot
brasil
brigade
canadienne
cassivi
chasse
civil
coherent
commercial
conclusions
contraception
copain
coupat
couverture
crimes
croix
cultures
curieux
curiosite
decedee
desagreable
desir
desmarais
dictature
differente
diffusion
dispo
economiste
ecris
electorat
elimine
epidemie
ethique
ethnie
experiences
fatigue
fichier
finis
fiscale
fonctionnaires
fournir
franco
fumee
gris
habitue
herite
humanite
immunitaire
importance
industry
installer
inter
interessants
investir
jolie
juif
jusque
justifie
libere
marqueur
ment
mienne
mp
naissance
necessairement
neo
nulle
office
officiellement
out
papa
parent
participe
particuliere
patients
paysage
phase
pleurer
pneus
polonais
positif
possede
possibilites
pretexte
prevenu
primaire
priorite
professionnelle
quebecoise
ramene
rayon
realise
realiser
reconnaissance
refus
repete
representer
reprises
restent
retourner
right
rond
saleh
saute
secours
sector
semblant
semblent
septembre
signifie
sol
specifique
ssd
stress
suffisamment
suppression
supprime
survivre
talent
tarif
tl
totale
traduit
travaillent
trompe
uber
usb
utilisant
utilisee
veille
vendent
vih
vin
visible
voient
##ak
##alite
##anee
##ap
##arant
##ase
##bit
##cieux
##dant
##duction
##ence
##ente
##eo
##ere
##este
##forme
##gan
##hi
##ics
##ides
##idite
##ieres
##ifs
##ino
##ip
##kg
##lites
##lue
##matique
##mique
##mite
##nee
##nement
##nn
##pi
##rche
##rons
##ssion
##tan
##tic
##times
##vis
##vise
##ys
##zy
2011
about
accueil
actionnaires
adapte
ado
adulte
aimerai
alarme
amerique
arnaque
associe
auparavant
azote
bcp
bienvenue
bio
bite
bots
branle
cable
cellulaire
ciel
circonstance
clientele
compagnies
complot
comprennent
consequent
copains
copie
coupes
crane
dalle
debattre
degueulasse
demandant
demunies
depit
difficilement
difficultes
dingue
dites
doux
edf
ego
enleve
enlever
equipes
exclu
exige
expert
expliques
framasoft
frappe
get
greves
grosseanomalie
gynecos
halte
hello
hp
identifier
illegal
indice
interlocuteur
inutiles
islamisation
jesus
jouets
juin
juno
lait
lambert
latin
lepen
lesquels
libyenne
low
madrid
magnifique
mandat
mario
match
maxime
mdr
medicament
melanger
metoo
milieux
mme
mondial
montee
moral
nantes
obsede
oeuf
operateurs
organisme
parisien
parisienne
particuliers
passait
payent
peter
peugeot
plans
plante
plastique
play
pleins
pluie
pollution
pousser
presentes
pue
raconter
raler
recul
reduit
rendez
restaurant
salade
sang
saoudien
seine
series
soldats
souligne
stop
strictement
suggestion
superieure
supprimant
supprimer
suspect
teste
today
trafic
traites
transaction
users
valise
vegetaliens
venezuela
vert
videosurveillance
wagons
we
##20
##ache
##aise
##ang
##ary
##ative
##chon
##cien
##cord
##cription
##ctions
##dent
##din
##dy
##gs
##ho
##ifier
##illons
##iner
##isees
##isent
##ison
##ity
##king
##k€
##lent
##lia
##los
##low
##mination
##mm
##nance
##nge
##ning
##nu
##nue
##ois
##ote
##phere
##phones
##po
##position
##rate
##rde
##rf
##rit
##sait
##tit
##ulation
##ult
##uvre
##vain
affaiblissent
affichees
allies
angleterre
anglo
apparait
at
attitude
audition
automatiquement
autorite
autorites
autoroutes
autriche
avouer
baise
bannieres
biens
bleu
boss
bouillir
bureaux
caca
cadres
cave
cest
champ
check
chers
cigarette
coince
compose
condamnes
constitution
contente
continues
contrats
copropriete
corruption
croise
declarations
decouvrir
decu
defend
depasser
descendre
diamond
differentialiste
durable
ecoutez
elus
emissions
encule
enseignant
entrain
espion
etablissements
ethnique
etonnant
etrangere
evenements
extension
exterieurs
fallu
filer
foutage
francophonie
freres
fume
grille
hawking
horaires
hugo
inde
individu
individuelle
insiste
inspire
interets
less
liee
lies
louis
maintien
manche
manipulation
masculin
mauvaises
maximiser
mega
mensonges
meurt
mien
mind
mm
mome
mondialisation
musk
mutuelle
nations
only
operateur
orientation
original
orwell
ouvertement
panneaux
participation
passera
personnels
philanthrope
pires
poitou
pollue
porno
precisement
preference
pretendant
prononce
provoque
proximite
ptet
qs
racontes
rage
ram
rase
recent
religieuses
rendent
repeter
reprend
representant
representatif
reprise
reproche
respecter
revoir
rouleront
sandwich
savait
sers
seules
signer
so
solide
some
soumis
spectre
stephen
suffisant
taches
theresa
they
tienne
toussa
travaillez
tribulations
variete
vitesses
wagon
wauquiez
wifi
work
world
zimbabwe
##80
##action
##ats
##bal
##cent
##cier
##cript
##culer
##dd
##di
##dite
##duit
##ep
##ete
##fle
##gy
##hant
##icale
##ifications
##isant
##issement
##itant
##lade
##lee
##naient
##nels
##nir
##ob
##ose
##ouche
##ove
##phone
##pt
##quence
##rade
##riere
##riser
##rry
##rus
##semble
##son
##taires
##tal
##tisme
##tt
##uille
##usse
##venir
##vistes
##vote
##vy
##ware
##zi
200gen2
absolue
active
actualite
adversaire
affichage
aille
ame
amendes
anneau
antisemitisme
artiste
attache
attendais
avancer
avantageux
avril
balancer
berlin
bilan
bobo
boucle
boules
bourse
cambrioleur
candidate
capital
centaines
chaise
chansons
chefs
cheres
cheval
chope
chouette
circoncision
citoyen
claque
climat
coins
collaborateur
concretement
conscient
consiste
constamment
construction
contrainte
convaincu
convoque
credible
crisse
db
decrit
defaut
definir
demandais
demenager
demission
demontrer
departement
depense
deplacement
deprime
derives
designer
devra
dgse
discussions
dlvv
documentaire
dollars
domaines
donnait
douce
drame
ecart
electeurs
electriques
elon
emmerde
empire
employee
endroits
enfer
enregistre
enseignants
entrer
exprimer
extinction
facons
faim
familiale
fautes
fb
feminine
financements
finances
fr
full
gaulle
gen4
genocide
gentils
gorgonzola
gouvernements
gpu
hec
hotel
humoriste
immeuble
importes
indignation
inscrit
inspection
insulter
international
intervenir
jacqueline
joues
julien
leaders
lesquelles
liberalisme
licence
logements
logiciel
loko
lumieres
magasin
manager
marc
maupassant
medecine
menant
menti
mercredi
merdique
mette
minitel
minorites
mises
modernes
monopole
moque
morceau
musulmane
naturellement
normaux
nostalgie
objectifs
oiseaux
ottawa
parlait
parlant
participer
party
passeports
paul
peche
poches
pompe
poubelles
power
preciser
prenait
prendra
publiques
pute
rajouter
ramener
rassure
raz
recours
references
regardant
rejoint
renseignement
representants
rigoler
rigueur
rose
roues
routes
routeur
rugby
rwanda
rythme
scooter
sensation
sevit
sincerement
sketch
smic
solidaire
sons
stationnement
stock
suggere
sup
suspension
sympas
tels
temoigne
teneur
terres
testament
ti
tr
trappes
tuerie
ulule
union
urssaf
valent
victoire
volontairement
windows
women
workaway
##60
##ada
##ault
##bert
##bine
##caux
##ciation
##cteurs
##cts
##cus
##duis
##ens
##ets
##ffe
##fi
##formation
##fort
##ft
##gation
##gee
##gle
##gnant
##icieux
##iff
##ifiable
##illon
##imes
##iot
##issent
##itable
##larite
##ley
##licite
##lion
##mar
##monter
##mule
##my
##oe
##olle
##otes
##otte
##ov
##ox
##oxe
##ple
##pp
##pte
##py
##rables
##raient
##riale
##sie
##sser
##stes
##tein
##tents
##tient
##tile
##tribue
##uge
##uire
##unite
##uste
##vention
##viennent
##vision
##ws
##°
2cv
33
6h
700
abandonne
affirmer
agent
amuse
angoisse
annonces
apporter
arc
arretes
assos
atteindre
audiences
avancees
bachir
benoit
besancenot
bim
brise
bruits
cadeau
caissier
camembert
canadiens
cdi
celebre
chicken
choper
classement
classiques
comique
commences
commente
concerts
confortable
connards
constructeurs
contacter
couloir
couts
cracher
creuse
creve
criminel
croquette
cuir
cuivre
decouverte
deplacer
derive
developpe
dirai
discute
domicile
dramatiques
dujardin
dynamique
echappe
ecolo
eduquer
egypte
enfance
english
entourage
environs
espagne
esti
etiquettes
existait
exprime
expulsion
fabriquer
fantome
fasciste
feq
flou
fuir
garantie
gaspillage
genere
gorge
hanzo
honneur
ikea
indesign
integrer
interessantes
internes
invites
ironie
ironique
jaune
jeunesse
journees
jure
jus
laissant
lambda
legalement
legerement
legitime
lever
live
livret
mails
maisons
major
majoritairement
male
manifs
manquent
merkel
mettant
mid
modifie
mods
moliere
monnaie
montagne
montrant
naturel
negocier
nintendo
niquer
nourriture
nuits
nus
oc
officiels
onde
organismes
oscars
outch
parite
parking
paroles
pattes
permets
pertinent
physiquement
pietonisation
plaque
plenel
pleure
pognon
poissons
politiciens
pourcentage
pourras
poursuivi
pouvoirs
preferer
prenom
pretendre
primes
problematiques
proportions
qualifie
quid
ramadan
reagir
recois
recoit
reconnais
regards
rejoindre
rejouit
remarques
remplir
rentable
reporter
rer
restaurants
resumer
retrouves
riz
same
sauve
sauvez
sdf
sentiments
serieuse
sociologie
soin
soutiens
strategique
street
structure
subreddit
sucrees
suicide
suivante
surveillance
taxe
temoignages
temoignent
trous
tunnel
understand
utilisateur
vaguement
valises
valley
valoir
vegans
vends
viol
vocabulaire
voler
volie
vrac
what
##22
##99
##aliste
##ances
##anisme
##ars
##ba
##bee
##bu
##cale
##ceptique
##chait
##chet
##chissant
##clame
##cm
##cue
##dia
##dit
##dom
##don
##hee
##her
##here
##herence
##hes
##hh
##hisme
##hose
##iels
##iliser
##isses
##itte
##ium
##lettes
##ling
##llon
##mine
##ndu
##nier
##nner
##ok
##oux
##plie
##ppe
##pute
##rateurs
##rce
##rees
##rez
##riez
##rim
##rouille
##rse
##saient
##tance
##tee
##ther
##tives
##tribuer
##tus
##ucher
##uelle
##uise
##upe
##urait
##usement
##vel
##vement
##viens
##viste
##wa
##way
##yme
3000
37
98
absurde
abuse
accessible
accidentellement
accusation
acier
adieu
afflux
airbnb
allant
amendement
antisysteme
appeles
arbre
armer
asperge
attaquer
atteint
auditions
bail
bain
baiser
beaute
belge
berge
bieres
billet
bissonnette
blame
bleus
boulangerie
boule
boulots
box
cachees
capables
capitaine
caricature
cat
causer
changera
charlie
chaussures
clan
clean
cliche
clique
coloc
compromis
connue
consentement
conserve
constat
credibilite
crever
crypto
dechets
deficit
deliveroo
deni
dents
design
disposition
dose
doucement
downvotes
drian
ecologie
economiser
edwy
embauche
encontre
entrepreneurs
envisage
epee
esclavage
eurodeputes
eventuel
excellent
excuses
expliquant
exploser
expressions
faillite
faisaient
faure
fdp
fer
feront
football
frangin
fromages
genoux
genres
gratter
habiller
hamon
human
hypocrisie
importer
imprimante
incertitude
increasingly
inferieur
initial
initiative
instance
intellectuel
intense
interesser
interventions
inventer
islamique
islande
jobs
jouent
joute
jv
king
laurent
liberer
licenciement
licencier
lineup
longueur
lot
lutter
manifeste
marchent
maree
massage
matchs
meluche
mentale
mentir
miel
milliard
miroir
moderateurs
modifier
motivation
muslim
nationaux
necessaires
negre
nettoyer
noire
nuls
obama
obtenu
oignons
onpc
outil
outils
ouvriers
paid
panier
paragraphe
parallele
pare
partant
partent
partition
parts
passa
passees
patriarcale
patrons
pdf
pedophile
peertube
penal
perds
permanence
permission
phare
pharmacien
pics
pieces
piste
placement
plate
pointer
pomme
porc
portee
posee
pratiquer
prenant
presentation
preservatifs
presidente
presume
prevoit
prochaines
produire
produisent
professionnel
programmes
projection
psychiatre
pvp
quebeckers
rame
rapporter
ratio
remboursement
renonce
repenser
requis
reserves
resoudre
reveil
reviens
richesse
robots
rotterdam
ruffin
sales
salon
samsung
satisfait
seance
self
sentais
sexy
show
signes
soirs
souhaites
speciaux
spectacle
spectacles
statistiques
substance
suivent
tags
tapis
tarnac
taule
taxer
terroriste
tetes
theorise
therapies
tit
tomate
touches
toutefois
tranquillement
travaillant
trentaine
tuent
twingo
urss
usagers
user
usul
vante
verser
videotron
violente
visites
vocation
vomir
voyous
wars
weak
weekend
xenophobie
xl
zola
##70
##ader
##aler
##ame
##ament
##ames
##ange
##art
##ates
##aves
##aze
##bi
##bre
##bs
##bution
##cable
##cker
##ctorat
##culent
##cution
##dire
##dr
##duire
##enait
##est
##gir
##gues
##hie
##hop
##hs
##ibles
##icien
##ieu
##ilite
##ils
##ims
##irais
##iter
##itude
##lateur
##lette
##llant
##llement
##mann
##mat
##ming
##net
##nges
##no
##nois
##now
##nse
##nus
##oint
##ologie
##ome
##opes
##ouir
##oules
##ow
##penser
##phisme
##pirer
##port
##posants
##ribution
##rir
##rises
##ritaire
##rou
##rque
##rue
##see
##siere
##tante
##tement
##the
##tifs
##toir
##tor
##trie
##ttre
##tu
##uee
##ueux
##uges
##ui
##ularite
##vaux
##venant
##venture
##vere
##vers
##vite
##vons
##win
##xique
##yable
##zz
1831
1984
1995
2003
2006
35h
3e
4g
abonnes
acceder
accelerer
acceptation
accusations
ad
admettre
agence
agglomeration
agissant
algo
ameliore
amphi
anecdote
anniversaire
arabie
arbitraire
argumentaire
arts
avions
bad
baisser
balkany
ban
bannir
barclays
baroin
bases
basse
benefices
beton
bfmtv
bible
bilateraux
binaire
bizarrement
bonheur
bouchon
bouton
bretagne
bubble
business
bœuf
cafetier
calmement
carotte
carottes
chie
chomsky
christophe
combats
come
comite
commerciale
communistes
complexe
confort
conne
consistance
continu
contradiction
correlation
correspond
cotisation
courte
decennies
decouvre
defi
degueu
democratique
demographique
demontre
depression
descends
dessiner
dgfip
diable
dictateur
directe
dirige
diviser
djihadistes
donnant
dors
drucker
durer
echanger
echelon
economiques
elire
emotions
enormes
entrainer
essentiel
eteint
etiquette
evidence
exister
explose
facilite
fai
faiblesse
fameuse
fesses
fiches
fighting
filiere
financierement
fion
fit
fonce
formellement
fournisseurs
foutent
frustre
fucking
galopante
gaver
gaz
generalites
generations
gif
guillotin
guyane
has
herbe
himself
his
hot
humble
hypothese
identitaires
if
inconnus
innovation
intelligent
intersectionnel
italien
jai
jlailu
juridique
kilometres
language
laver
leaked
lecteurs
liberale
locataires
logo
louer
madmoizelle
maires
maitrise
manteau
maternelle
matieres
matos
meilleures
mettrais
meuble
mignon
milan
minuscule
miracle
montage
motive
movement
nathalie
navigateur
neutre
nier
normale
normand
notation
novembre
officielle
old
opposes
ordis
os
otage
ouverts
paies
paraitre
partagent
partait
partielle
paslegorafi
passages
peage
percu
permettrait
petel
phenomene
pietonnisation
plaidoyer
plaignent
plateforme
pont
positive
prestations
prit
proferer
profitent
proportion
protege
psys
pubg
purement
reactions
recevoir
reer
regardes
regner
remontent
renseigner
rentrant
renvoye
responsables
restera
retrait
reussis
reuters
rever
reviser
rpg
saisir
salles
score
section
sequences
serveur
sf
soft
soirees
sondages
sophismes
soudain
spoiler
stable
stp
subvention
superieurs
suppriment
surveiller
systemes
taire
tension
terrible
theorique
tord
traditionnel
traine
trainer
tune
universitaires
venait
ventes
verifie
verras
versions
vibrant
vinaigre
vingt
virtuel
vivant
voudra
voyages
voyant
white
wtf
xv
##32
##45
##92
##ades
##ading
##ains
##anne
##ano
##ao
##are
##ater
##atrice
##bale
##berg
##berge
##biliser
##blement
##cation
##chant
##ciaux
##cident
##cient
##clut
##courager
##craft
##eral
##erne
##erons
##fie
##gene
##gent
##gn
##gnee
##ifiant
##illant
##irait
##issant
##isson
##ist
##itaires
##lc
##leres
##let
##lf
##lice
##lir
##lisme
##logue
##lte
##mart
##matiques
##mere
##metre
##miques
##mme
##mmer
##mus
##ndant
##ndra
##nees
##ney
##nique
##nues
##ode
##oger
##oi
##oke
##oler
##onner
##ore
##orts
##osant
##paraitre
##pd
##phobe
##pm
##posant
##poser
##quais
##rand
##ratoire
##rm
##rme
##rne
##sens
##sible
##ssier
##tache
##taient
##tente
##ties
##tins
##tos
##uelles
##uent
##uffe
##uin
##ulet
##utes
##ving
##yez
##ym
##ype
##zon
1200
2024
30min
4e
4h
59
5€
abandonner
aborder
absurdite
abuser
accompagne
achetes
actuels
adolescent
album
amendements
amoureux
annuel
approuve
appuyer
aprem
arrestations
attaquent
attendait
attendu
autogere
autonome
avances
avorter
b350
back
bateau
bayer
bd
belgique
bisous
blabla
bled
blessures
bouscule
bouygues
bresil
bulle
cachee
cad
calais
camion
capteurs
caresse
casses
castorama
causes
chantiers
chaos
chaotique
charte
cheque
chercheurs
cible
claire
clinton
cm
co2
comparable
conduire
config
connus
consonnes
consulter
contenir
contenus
conversations
copier
courants
courir
coutent
crash
croiser
croyaient
culturelle
dangereuse
daube
decheance
declarer
deconne
degres
deplace
deputee
desert
dessin
destruction
devenus
deviens
dialogue
disaient
distribution
diverses
dossiers
ecotaxe
editeur
edith
edito
effondre
egal
embarque
emmerder
engage
engrenage
enterre
entiere
equilibre
espaces
espoir
essai
essentiellement
etapes
etrangement
evenement
evolue
evoluer
excellente
executer
exploite
faciles
facto
fakemed
favorable
felicitait
festival
first
flic
flotte
fondamental
foot
francophone
fret
fuite
fusee
gad
gagnait
gagnant
gamelle
garage
geek
glander
gosse
goute
greg
guidant
guillotine
hate
hebdo
historiques
hostage
hydro
illusion
imaginons
immediatement
importantes
imposition
imprimer
indefiniment
independants
infographie
infra
inquietes
integralite
intellectuals
introspection
iphone
irl
islamiste
jaunes
jouant
langues
leader
legislation
legislative
lgbt
liberation
limiter
lisant
luttais
luxe
machin
majeur
malades
malhonnetete
maman
manifestent
mepris
meritocratie
metropole
military
misogyne
moindres
montages
most
mou
negatif
nettement
neutralite
noam
nourrir
nuage
obligatoirement
observer
oeuvres
officer
opinions
organisee
paiement
parano
parfaite
parte
patient
peinture
pendules
persos
piment
piquer
plaint
plateformes
plats
plugin
pogner
politics
ponzi
potentiel
pourrir
poussier
principaux
privilege
process
profils
programmation
proposent
proposes
pubs
puissant
ras
redditeurs
reduite
reels
regimes
reintroduit
remplis
renifle
renseigne
repartir
revendique
rh
rigole
robot
roi
roulis
rurales
sarko
sejour
sentent
separe
sex
shimmer
shit
should
silicon
silo
simpliste
smith
souverainete
ss2i
strange
study
suede
suffire
survie
swapped
sympathique
syndrome
syrie
tableau
tabou
tatouage
telephoniques
telles
temoins
theories
there
tillerson
tires
toubib
trace
trouvais
trouveras
typiquement
ubiquite
unite
universaliste
universel
use
vaches
valable
vandalisme
vegetariens
ventre
vetements
virtuels
visages
vive
voisee
west
œuvre
##17
##18
##65
##ablement
##ach
##ague
##aissent
##ake
##alan
##aliser
##alisme
##alites
##anc
##anes
##arch
##ares
##ash
##aud
##bies
##bon
##cage
##cede
##chette
##chi
##chisme
##cl
##crate
##crates
##cris
##crite
##culaire
##cultes
##cupation
##dge
##ding
##elles
##ences
##enez
##enne
##ents
##eting
##fait
##faite
##formes
##gal
##gas
##gele
##gets
##gies
##gin
##gner
##gogie
##hetique
##iant
##iation
##ib
##iete
##ifiee
##iles
##ilise
##ism
##issait
##itaux
##ivant
##lande
##lines
##listes
##mait
##mark
##meur
##mne
##nateur
##nder
##nds
##ndue
##ndus
##nellement
##nger
##nies
##nistes
##ocher
##omique
##ooks
##oom
##oppe
##osa
##oth
##ots
##ouille
##our
##ous
##peurs
##pique
##pire
##play
##plus
##pn
##querir
##quete
##ram
##rger
##rices
##riel
##rin
##rinaire
##ritaires
##ru
##ructif
##sante
##seau
##seur
##seurs
##sez
##sifs
##sses
##tention
##tiquement
##trice
##trophe
##truction
##tude
##uant
##uine
##uque
##uu
##uzz
##version
##vo
##vois
##wer
##yait
##ypes
100€
24h
31
32
4000x2000
51
8h
accro
accuser
accuses
adam
adn
adoption
affecte
aimerait
aix
alexandra
allaient
allemands
allie
allocations
aluminium
ama
ambitions
american
amies
amusant
amuser
anarchistes
angle
antenne
app
argumentation
artisanaux
assiste
assistes
attrape
autrefois
baguette
baisses
bat
bfm
boisson
bombe
bonhomme
boucher
brancher
brico
buts
calcule
capacites
capte
carabine
carnet
catacombes
catholiques
cecile
changements
chante
chanter
charente
charger
chaudrons
cheap
choisissent
circonstances
citation
codes
comble
communiquer
compagne
compatibles
comptoir
concentrer
conception
concurrents
conduite
confirmer
confondre
confusion
contestation
contredit
corbiere
coree
corrige
corriger
courrier
criminels
criss
croient
crous
cuisson
cynisme
defauts
demandent
demarche
demenagement
demie
detournee
detruit
deviner
difficiles
dinosaures
dira
diversite
docs
dorment
down
ds
ebox
echo
ecosia
ecoutes
ect
edouard
egaux
electronique
elmaleh
embaucher
ena
engagement
eperdument
esperer
estomac
etonnes
exact
exchange
explication
extraits
fabrique
facteur
failli
fantasme
favoris
folie
fondu
forfaits
fouiller
fournisseur
fourre
frites
gamer
gardent
gardes
geants
generaliste
generique
genetique
gentiement
grammes
grandi
gueuler
h24
hab
habiter
habituellement
had
hd
herbes
higher
hitler
hollandais
home
homeopathes
hospitalise
ia
ideologique
idiots
illegaux
illustree
imaginez
impressionnant
imprimes
inspiration
installent
intellectuelle
intelligence
interpreter
investigation
iran
islamiquement
islamophobe
issue
issus
java
jerusalem
joindre
joli
justification
jvc
laissent
lamy
lecteur
legere
lego
lentement
logan
loupe
lucas
ludique
magasins
magistrats
maladies
malin
manieres
manifestement
manifester
manquait
marges
marques
marrer
mate
materiaux
militante
mine
missions
montent
morceaux
mouais
moyennement
muscles
navigo
negatifs
nets
nuance
numerique
nutritionnel
objective
obligatoires
oeil
ondes
opposer
optique
origines
ouin
over
pacifique
paille
paire
parlementaires
participeront
patience
patrick
pcq
pecresse
penis
performance
permanente
persona
personnages
perturbant
pesticides
pl
plaide
plains
playlist
politiquement
pommes
pondre
posent
poubelle
pourrie
poursuit
poussent
pratiquement
precision
precisions
preferent
preneur
preparation
pretend
privilegie
problematique
productivite
profond
profondement
profondeur
prouvent
provoquer
puberte
putin
qq
quatrieme
quiconque
quinze
raclure
radicalisation
rajoutes
ramasse
recit
reformes
remonter
rempli
remporte
rentrent
repasser
repousse
reprocher
republicains
resistance
resiste
responsabilites
rest
reveiller
revendications
rhetorique
rhinoceros
ricains
sabre
safe
sainte
saoudite
sarcasme
sarcelles
satellite
scientifiques
senti
seuil
signal
socialistes
soldier
sommet
soudainement
souffle
souffre
soutenir
soutenu
stagiaire
stupide
submerges
successeurs
suivantes
suivants
suivie
supplementaires
supporte
supporter
supports
supposement
surnom
sœur
tablettes
tag
taiwan
tares
tariq
technologique
tentative
tesla
thunes
toilettes
totalite
touristes
transition
trav
traverser
unisson
universites
urgentistes
utiles
vaccin
variable
verse
vif
visant
visiter
volant
vues
whataboutisme
when
xenophobes
yep
##28
##40
##90
##acre
##ag
##aison
##amment
##ams
##ape
##aques
##atch
##atifs
##atoires
##ature
##auration
##bc
##cade
##cane
##cement
##chan
##chee
##cide
##cidence
##ciens
##cine
##cles
##cois
##cret
##croche
##cutant
##cute
##dee
##dile
##duite
##edia
##eille
##enais
##end
##endre
##erer
##ession
##eu
##euses
##ference
##fler
##fonds
##gane
##gration
##gular
##ham
##hique
##hir
##hon
##ignes
##ilisation
##illee
##inaire
##ingue
##isable
##iseur
##itations
##jectif
##ken
##kes
##lan
##lance
##lash
##latif
##lative
##lem
##lements
##log
##loque
##matisation
##mets
##mon
##mw
##ncant
##ndent
##noncant
##ntait
##oh
##oiles
##oing
##olu
##omb
##onde
##ook
##orne
##osite
##osse
##ough
##ouler
##petitif
##philes
##phique
##pre
##prehensible
##prenant
##puce
##qu
##qua
##quants
##quettes
##quin
##reindre
##rica
##ride
##rifie
##rinne
##risee
##rmis
##rome
##rte
##sais
##scite
##selle
##sis
##tais
##tc
##tere
##tien
##ting
##tite
##tribues
##tter
##tti
##ual
##uation
##ube
##uck
##uie
##ulent
##ulier
##umer
##una
##uni
##uper
##vantes
##verse
##vide
##vienne
##vier
##xite
##xxx
##ypique
000€
10€
1500
17h
2000€
2002
2008
23h11
3ds
3eme
49
600
65
67
76
accroche
addiction
adherents
adoptent
affilee
again
aged
agriculture
alarmants
alexis
algerie
alimentaires
alimenter
alpes
alsace
alternance
amateur
ambassade
anciennete
annotation
antifa
aop
apl
appelles
arrivait
asie
asile
associer
attendent
attentes
attire
banc
bannies
beneficier
bernier
best
biaise
billets
ble
bloquent
boulanger
breton
bruno
buffet
bug
calins
calvaire
calviere
cannabis
carres
catherine
ceinture
celine
centaine
cercle
champs
chanceux
charlatans
charline
charme
chauffeur
chelou
chiens
choppe
chronique
chupika
cinquieme
citron
clerge
climatique
clip
cohesion
coiffure
coinces
colloque
combattant
combine
comm
comores
comprendrez
comte
condemn
conducteur
confronte
confronter
confus
connaissant
connecte
connexion
conserver
considerant
conso
consommateur
constitue
construit
contents
contribuable
cou
couille
couler
courante
couvre
craindre
critere
croisiere
cryptomonnaie
cubes
cultural
daron
dauphins
debiles
deces
decides
declencher
defendu
degage
del
delit
demandera
depanneurs
depends
descendants
descentes
destination
dettes
devis
diderot
didier
diplomatie
directrice
discret
disparaissent
dispose
dominique
duckduckgo
durs
echanges
echiquier
economistes
edite
eduque
eiffel
emile
emmerdes
entoure
epices
epouse
escalier
etabli
etablir
explosifs
fabricant
factures
faibles
feras
fete
fiable
fichiers
financiers
finds
flash
fleurs
foire
fonctionnent
formulation
forts
fortune
fouet
fragile
frein
frequenter
froide
frontieres
fusion
galerent
gants
gervais
globe
grandement
haas
hautement
hautes
hehe
hierarchie
history
ho
homeopathie
homophobes
horaire
hs
huit
humiliation
ie
illegale
illimite
imam
importation
importuner
impossibles
imprevu
indiciaire
indiens
inhalation
innocent
insultant
interview
ir
irai
jambe
jihadistes
jlm
jordan
laissons
lakdim
leche
legale
legislatives
legitimite
levee
librement
lisee
litterature
lorraine
lourds
lune
m5s
mac
maghrebin
maintes
maj
majeure
malheureux
manges
mash
matelas
mechesala
mediocre
mentionne
meprisant
mesurer
microsoft
ministres
minuit
monsanto
monstre
motif
moustache
mouvance
musee
musulmanes
naturelle
neanmoins
nietzsche
nope
norvege
nucleaires
observation
octobre
oklahoma
omelette
operations
ordonnances
ordures
oreilles
oriente
paf
palme
passagers
passerait
patrimoine
perturber
peuples
pharmacie
pincettes
plage
plaine
plantes
pnf
pogne
poire
polar
politicien
polygamie
pompidou
positifs
poujadisme
presentement
presents
prevue
privees
prives
productif
professionnels
psa
quart
queer
quotidienne
races
rachat
racheter
rale
random
realiste
recente
recolte
recompense
recompenses
regardez
relire
rembourse
rembourser
remets
remis
rentres
reparation
repart
repetition
reportage
reputation
residant
ressort
resterai
retient
revelations
revendre
rip
rive
rogers
rois
roses
roules
rupture
saisi
sanders
saut
savon
say
scolarite
semblait
semi
serve
servez
sessions
sexuels
signature
similaires
songe
sonore
sortis
souche
souleve
souligner
soutient
speculation
stade
startup
status
stupeflip
suicider
supplante
supportait
surveille
suv
tabarnak
telephones
teletravail
television
temoignage
temperatures
temporaire
terminal
terminer
tessier
theo
timide
tirent
toit
tonton
toyota
tp
tradition
trajets
tranches
transactions
trap
travailleur
traverse
usure
utilisait
valait
valls
vanhoenacker
venue
venus
victories
villani
vingtaine
vivement
vols
wii
wikipedia
workers
york
##12
##25
##38
##42
##93
##ab
##acks
##actif
##adis
##alisation
##alogie
##ana
##ando
##aque
##arien
##ark
##atale
##bain
##cakes
##cants
##car
##carde
##casse
##catif
##cedes
##centre
##cha
##cho
##chons
##cieres
##ckey
##combre
##core
##cott
##cotte
##coup
##courage
##crivent
##ctee
##ctes
##ctures
##culation
##dh
##dication
##dra
##du
##ducteur
##erale
##eries
##ery
##ettes
##face
##fer
##fere
##ferer
##ffres
##fiant
##fication
##fion
##fonce
##gard
##genes
##genre
##gerer
##gieux
##gmatique
##gnons
##gny
##gos
##gre
##grer
##h30
##hepherd
##hip
##hy
##icky
##iellement
##iement
##igo
##igue
##ii
##ill
##imation
##ints
##isante
##isations
##isez
##itait
##itions
##ivre
##jugales
##juste
##kers
##kins
##ky
##lack
##lante
##lard
##lations
##lerance
##leur
##lib
##lic
##liser
##llez
##llo
##lois
##lone
##lonne
##lou
##lous
##main
##maire
##mal
##mation
##mbres
##meres
##mission
##mites
##mn
##mons
##mos
##mp
##mpli
##nate
##naux
##nazis
##ncait
##nch
##nche
##neau
##neuve
##nez
##niere
##night
##nk
##nker
##nnel
##ntes
##obilier
##odique
##ogis
##ographe
##oile
##oise
##ols
##ophobie
##ouf
##oulant
##ours
##page
##pal
##pants
##parait
##pard
##parler
##peau
##perant
##peration
##phobie
##pille
##pilles
##porter
##posee
##post
##poter
##presse
##prete
##primes
##quier
##rablement
##rages
##raine
##rale
##rants
##raphe
##raphiste
##raque
##ratrice
##rbo
##reme
##rene
##reux
##rg
##ringue
##rippe
##ros
##rouiller
##rporation
##run
##sance
##scal
##sile
##siste
##sky
##sor
##sserie
##ssions
##sto
##su
##tech
##ten
##tenant
##tence
##tez
##tige
##tivite
##tot
##toye
##tration
##ufs
##uite
##ulot
##ulte
##uple
##urent
##utations
##utte
##uuu
##vasion
##vd
##vertir
##vez
##view
##vine
##visibles
##voie
##vres
##vrier
##xy
##yons
##ypse
001
100g
10min
126
1600
1950
1980
2013
20€
3200mhz
350
57
5e
5h
95
abrutis
absurdities
abusive
acceptable
acer
actifs
actrice
administrations
adultes
aie
aimeraient
ais
ajoutes
alentours
alimentation
allegrement
ampleur
annoncee
ap
api
appareils
apprends
apprenne
arrivera
assument
athees
athena
attirer
attraper
audio
aumonier
automobile
autoritarisme
ayez
ba
bagnole
balancetonporc
barrages
barrer
baser
basique
battait
beland
believe
benzema
bercy
biblique
blade
bock
boeuf
bonde
boot
bossant
bosses
bouches
bouh
brule
brunswick
bts
cahuzac
camarade
can
cap
capitaux
carapater
carbone
categories
cathos
causalite
cedric
cent
cg
chaleur
changent
chauffage
cherchant
choux
christianisme
clee
clef
close
commencais
community
compensation
complement
compliques
compta
comptabilite
comptent
concevoir
concues
concurrent
connaissait
connaissez
connasse
connecter
consensus
consonne
constituer
conteste
contourne
contractuel
contribuer
controleur
convictions
corde
corrects
cotise
coucher
coule
crame
cran
credits
crees
creuser
criminalite
crs
cuillere
cuits
dassault
debraille
decalage
deception
decouverts
deep
degoute
delacroix
denoncer
dependant
deroule
determiner
developpeurs
devez
dictionnaire
dies
diesels
diffuser
dimension
diminue
diner
diplomatique
discerner
discord
doublure
drop
dune
ecarter
eco
economiquement
ecraseront
electro
elevee
enceinte
encules
enjeu
enquetes
enregistrements
enregistrer
enseigne
entendais
entretiens
epais
equipements
eric
espionnage
essentiels
etage
eteindre
evacuation
evidement
excel
existant
extremes
failles
fans
feeling
feraient
fermes
filtre
finissez
fins
firefox
floride
fondateur
fosse
foule
foutant
franceinfo
franchise
frequente
fruit
gabriel
gala
gaming
gardin
gaucho
genant
generalise
gorafi
grain
gratis
gratuites
graves
greenpeace
groupement
gruau
guys
hashtags
head
here
heritage
honteux
hotels
identifie
ignorant
illicites
immediate
immense
immigree
inclus
inconnu
indemnites
individus
industriel
industrielle
influencer
infractions
ingerence
insecte
interrogatoire
into
investis
islamisme
isole
iut
ivg
jambes
japonais
jojo
jouable
jules
just
karim
kevin
laptop
launcher
lave
lent
levy
lgbti
limitee
list
m2
maitriser
malaise
managers
manon
marier
massive
maudit
mecanique
medicaments
menaces
mentales
metrage
mettait
mille
monstres
montrent
mouton
nationalisme
nee
nerf
nique
nommer
normandie
notions
nuire
nuis
objets
off
okay
olympe
ordinateurs
ordonnance
ordres
oubli
ouvrent
paient
pan
partages
partiellement
passager
passons
payant
pernaut
pesent
phrases
pib
pieges
pif
pisser
plantez
plebbit
plie
poesie
policiere
pompes
posture
poudre
pourrai
precedentes
precises
privatise
privilegier
probable
professionnelles
progres
promet
proprietaires
proteges
provoc
publicite
publies
punk
python
qualifies
queue
radar
radicale
rant
rayons
reactionnaire
recentes
recents
recette
reciproque
reclamer
recommence
refait
reflexes
regret
relance
relis
remet
rencontrer
renforce
repondent
repos
repression
requins
res
resident
respectent
ressortir
retenir
reussite
rex
rinces
routine
savaient
says
scenes
sceptiques
scolaire
seigneur
seropositif
serre
shopping
siecles
sjw
socialisme
souvient
specifiquement
spotify
state
stockage
store
subis
subitement
subs
sueur
sursis
symbole
systematique
taxant
telecom
telus
ter
throwaway
tien
til
toile
touchee
trait
transfert
transformer
transporte
tri
trimballe
triple
try
twitch
ump
usurpe
vaisseau
varie
varier
versa
vertigineuse
vi
videe
vienne
viral
viril
virus
voisement
volontaire
volume
voudrait
voyait
voyons
way
webtele
will
œil
##!
##"
###
##$
##%
##&
##'
##(
##)
##*
##+
##,
##-
##.
##/
##:
##;
##<
##=
##>
##?
##@
##[
##\
##]
##^
##_
##`
##{
##|
##}
##~
##¡
##£
##©
##«
##®
##¶
##»
##×
##æ
##÷
##ø
##œ
##ʔ
##ʕ
##ʖ
##λ
##μ
##а
##б
##в
##г
##д
##е
##з
##и
##к
##л
##н
##о
##п
##р
##с
##у
##х
##ы
##ಠ
##ᴗ
##ᴥ
##–
##—
##‘
##’
##“
##”
##†
##•
##‿
##⇒
##≦
##≧
##⊂
##━
##┻
##╯
##□
##▽
##◕
##◠
##☆
##☺
##♂
##♡
##♥
##♩
##♪
##♫
##✌
##✿
##❤
##⸮
##《
##》
##ツ
##🇫
##🇷
##🇸
##🇺
##🍫
##🎵
##🎶
##🏍
##🏻
##🏼
##🐓
##🐧
##🐬
##👄
##👌
##👏
##💪
##😁
##😂
##😃
##😄
##😅
##😉
##😊
##😋
##😎
##😑
##😒
##😔
##😕
##😞
##😠
##😤
##😳
##🙃
##🙄
##🤔
##🤘
##🤞
##🤣
##🤦
##🥂
##🦈
##🦋
